{"vocab_size": 700, "merges": [["r", "e"], [",", "</w>"], ["s", "</w>"], ["e", "</w>"], ["a", "n"], ["t", "</w>"], ["m", "a"], ["o", "n"], ["e", "n"], ["o", "r"], [".", "</w>"], ["i", "n"], ["e", "r"], ["l", "</w>"], ["c", "on"], ["h", "e"], ["y", "</w>"], ["a", "t"], ["i", "s"], ["f", "e"], ["i", "d"], ["u", "s"], [":", "</w>"], ["a", "</w>"], ["en", "c"], ["con", "f"], ["conf", "id"], ["confid", "enc"], ["t", "o"], ["l", "o"], ["q", "u"], ["d", "</w>"], ["i", "s</w>"], ["in", "g"], ["ing", "</w>"], ["he", "l"], ["qu", "i"], ["c", "a"], ["m", "ma"], ["hel", "lo"], ["s", "t"], ["or", "g"], ["org", "an"], ["ma", "mma"], ["m", "</w>"], ["0", "."], ["l", "e"], ["r", "o"], ["fe", "e"], ["i", "t"], ["c", "o"], ["i", "</w>"], ["re", "qui"], ["requi", "re"], ["e", "s</w>"], ["require", "s</w>"], ["confidenc", "e"], ["m", "e"], ["a", "l"], ["t", "h"], ["d", "a"], ["s", "u"], ["g", "re"], ["organ", "is"], ["l", ",</w>"], ["ca", "us"], ["on", "</w>"], ["er", "</w>"], ["o", "u"], ["mamma", "l</w>"], ["s", ":</w>"], ["i", "on</w>"], ["c", "u"], ["t", "he"], ["k", "e"], ["n", "o"], ["e", "x"], ["m", "o"], ["p", "ro"], ["r", "a"], ["i", "g"], ["0.", "8"], ["p", "h"], ["no", "w"], ["m", "or"], ["caus", "es</w>"], ["ig", "h"], ["to", "da"], ["e", "t"], ["a", "t</w>"], ["a", "s"], ["confidenc", "e</w>"], ["en", "t</w>"], ["co", "f"], ["con", "t"], ["v", "er"], ["f", "or"], ["organis", "m</w>"], ["an", "</w>"], ["c", "e</w>"], ["hello", "</w>"], ["t", "i"], ["re", "le"], ["rele", "v"], ["relev", "an"], ["an", "i"], ["ani", "ma"], ["0.8", "1"], ["p", "l"], ["me", "mor"], ["fee", "l</w>"], ["cont", "ex"], ["contex", "t</w>"], ["a", "b"], ["at", "ion</w>"], ["an", "d</w>"], ["cof", "fe"], ["coffe", "e</w>"], ["y", ",</w>"], ["is", "_"], ["is_", "a</w>"], ["i", "l"], ["g", "e"], ["memor", "y</w>"], ["f", "o"], ["fo", "cu"], ["focu", "s</w>"], ["o", "ver"], ["igh", "t</w>"], ["a", "m</w>"], ["t", "er"], ["hello", ",</w>"], ["at", ",</w>"], ["d", "e"], ["re", "s"], ["it", "y</w>"], ["g", "ra"], ["for", "</w>"], ["re", "n"], ["ma", "k"], ["mak", "e</w>"], ["y", ".</w>"], ["mo", "s"], ["mos", "t</w>"], ["relevan", "t</w>"], ["r", "ight</w>"], ["now", ":</w>"], ["ke", "y</w>"], ["ter", "m"], ["term", "s:</w>"], ["over", "al"], ["overal", "l</w>"], ["confidence", ":</w>"], ["c", "k"], ["y", "ou"], ["i", ",</w>"], ["p", "p"], ["gra", "ph"], ["graph", "</w>"], ["re", "c"], ["gre", "at</w>"], ["fee", "l,</w>"], ["s", "e"], ["in", "</w>"], ["anima", "l</w>"], ["er", ",</w>"], ["u", "d"], ["a", "r"], ["c", "e"], ["t", "w"], ["in", "fe"], ["infe", "ren"], ["inferen", "ce</w>"], ["su", "g"], ["sug", "ge"], ["sugge", "st"], ["suggest", "s</w>"], ["-", ">"], ["->", "</w>"], ["(", "confidence</w>"], ["0.81", ")"], ["0.81)", ".</w>"], ["gre", "at,</w>"], ["mamma", "l,</w>"], ["us", "ing</w>"], ["rec", "ent</w>"], ["to", "k"], ["tok", "en"], ["token", "s:</w>"], ["us", "er,</w>"], ["organ", "i"], ["organi", "z"], ["me", "et"], ["co", "m"], ["b", "a"], ["the", "re"], ["ph", "o"], ["pho", "to"], ["photo", "s"], ["photos", "y"], ["photosy", "n"], ["photosyn", "the"], ["photosynthe", "s"], ["o", "</w>"], ["th", "en"], ["toda", "y,</w>"], ["c", "t"], ["k", "now"], ["qui", "ck"], ["quick", "l"], ["v", "e</w>"], ["n", "i"], ["g", "o"], ["k", "</w>"], ["p", "e"], ["organis", "m"], ["a", "i,</w>"], [")", "</w>"], ["i", "m"], ["im", "pro"], ["impro", "v"], ["in", "f"], ["u", "m"], ["toda", "y</w>"], ["mo", "st"], ["u", "p"], ["at", "e</w>"], ["organiz", "e</w>"], ["meet", "ing</w>"], ["confidence", "="], ["w", "h"], ["t", "e"], ["pl", "an</w>"], ["re", "d</w>"], ["r", "at"], ["a", "pp"], ["ce", "s"], ["f", "u"], ["l", ".</w>"], ["pe", "o"], ["then", "</w>"], ["improv", "es</w>"], ["f", "a"], ["h", "igh"], ["b", "i"], ["bi", "r"], ["inf", "er"], ["0.", "7"], ["confidence", ",</w>"], ["is", ",</w>"], ["le", "ar"], ["ti", "c"], ["go", "al"], ["pro", "b"], ["prob", "ab"], ["probab", "il"], ["you", "</w>"], ["ra", "in</w>"], ["0.81", ".</w>"], ["us", "er</w>"], ["a", "i</w>"], ["0.", "9"], ["tw", "o</w>"], ["hello", ".</w>"], ["organism", ",</w>"], ["su", "pp"], ["supp", "or"], ["at", "h"], ["s", "w"], ["c", "re"], ["f", "in"], ["as", "e</w>"], ["l", "i"], ["pl", "an"], ["h", "as"], ["has", "_"], ["there", "</w>"], ["b", "e"], ["da", "r"], ["c", "lo"], ["clo", "ud"], ["h", "um"], ["hum", "id"], ["photosynthes", "is</w>"], ["bir", "d</w>"], ["h", "app"], ["infer", "red</w>"], ["wh", "at</w>"], ["ab", "ou"], ["to", "mor"], ["tomor", "ro"], ["tomorro", "w"], ["t", ".</w>"], ["most", ",</w>"], ["a", "c"], ["ti", "ve</w>"], ["is", "t"], ["m", "ent</w>"], ["res", "p"], ["resp", "on"], ["cu", "r"], ["c", "h"], ["a", "g"], ["r", "i"], ["p", "res"], ["ver", "s"], ["in", "t"], ["w", "at"], ["wat", "er</w>"], ["probabil", "ity</w>"], ["rat", "e"], ["pro", "ces"], ["proces", "s</w>"], ["p", "o"], ["toda", "y.</w>"], ["at", ".</w>"], ["peo", "pl"], ["peopl", "e</w>"], ["ma", "ke"], ["make", ",</w>"], ["cof", "fee"], ["coffee", ",</w>"], ["k", "s</w>"], ["w", "a"], ["wa", "s</w>"], ["t", ",</w>"], ["c", "lear"], ["clear", "</w>"], ["com", "m"], ["u", "ni"], ["suppor", "t</w>"], ["respon", "s"], ["respons", "e</w>"], ["b", "u"], ["c", "</w>"], ["o", "d</w>"], ["th", "an"], ["you", "r"], ["your", "</w>"], ["hel", "p"], ["dar", "k</w>"], ["high", "</w>"], ["c", "t</w>"], ["up", "se"], ["upse", "t</w>"], ["th", "is</w>"], ["ca", "t</w>"], ["quickl", "y</w>"], ["de", "fin"], ["e", "_"], ["res", "ou"], ["resou", "r"], ["ex", "e"], ["exe", "cu"], ["su", "b"], ["sub", "t"], ["subt", "as"], ["subtas", "ks</w>"], ["e", "v"], ["ev", "al"], ["eval", "u"], ["d", ",</w>"], ["anima", "l,</w>"], ["d", "er"], ["co", "l"], ["com", "e</w>"], ["in", "cre"], ["incre", "ase</w>"], ["cloud", "s</w>"], ["caus", "e</w>"], ["ro", "b"], ["i", "ve</w>"], ["confidence=", "0.7"], ["gre", "at.</w>"], ["confidence", ".</w>"], ["th", "e</w>"], ["an", "sw"], ["li", "ke"], ["like", "l"], ["w", "it"], ["wit", "h"], ["e", ",</w>"], ["8", ".</w>"], ["u", "n"], ["ac", "tive</w>"], ["r", "y</w>"], ["he", "at</w>"], ["o", "v"], ["l", "a"], ["or", "</w>"], ["at", "is"], ["fa", "ct"], ["st", "r"], ["se", "cur"], ["secur", "ity</w>"], ["t", "ion</w>"], ["te", "ch"], ["tech", "ni"], ["techni", "qu"], ["techniqu", "e</w>"], ["re", "t"], ["ca", "l"], ["st", "ud"], ["stud", "y</w>"], ["d", "at"], ["know", "le"], ["knowle", "d"], ["knowled", "g"], ["knowledg", "e</w>"], ["th", "</w>"], ["v", "er</w>"], ["con", "vers"], ["convers", "ation</w>"], ["has_", "int"], ["has_int", "ent</w>"], ["an", "ce</w>"], ["ca", "l</w>"], ["b", "r"], ["ma", "the"], ["mathe", "ma"], ["tic", "s</w>"], ["f", "i"], ["fi", "e"], ["fie", "l"], ["re", "</w>"], ["n", "et"], ["t", "on"], ["ton", "e</w>"], ["s", "er"], ["know", "</w>"], ["abou", "t</w>"], ["re", "d"], ["help", "fu"], ["happ", "y.</w>"], ["for", ",</w>"], ["tw", "o"], ["relevan", "t.</w>"], ["w", "r"], ["b", "et"], ["bet", "t"], ["bett", "er</w>"], ["comm", "uni"], ["communi", "c"], ["communic", "ation</w>"]], "id_to_token": ["(confidence</w>", ")</w>", ",</w>", "-></w>", ".</w>", "0", "0.", "0.7", "0.8", "0.81", "0.81).</w>", "0.81.</w>", "0.9", "1", "2", "3", "4", "5", "6", "7", "8.</w>", "9", ":", ":</w>", "</w>", "<bos>", "<eos>", "<pad>", "<unk>", "_", "a", "a</w>", "ab", "abou", "about</w>", "ac", "active</w>", "ag", "ai,</w>", "ai</w>", "al", "am</w>", "an", "an</w>", "ance</w>", "and</w>", "anima", "animal,</w>", "animal</w>", "answ", "app", "ar", "as", "ase</w>", "at", "at,</w>", "at.</w>", "ate</w>", "ath", "ation</w>", "atis", "b", "ba", "be", "better</w>", "bir", "bird</w>", "br", "bu", "c", "c</w>", "ca", "cal", "cal</w>", "cat</w>", "caus", "cause</w>", "causes</w>", "ce", "ce</w>", "ces", "ch", "ck", "clear</w>", "cloud", "clouds</w>", "co", "coffee,</w>", "coffee</w>", "col", "com", "come</w>", "comm", "communication</w>", "con", "confidence,</w>", "confidence.</w>", "confidence:</w>", "confidence</w>", "confidence=", "confidence=0.7", "cont", "context</w>", "conversation</w>", "cre", "ct", "ct</w>", "cu", "cur", "d", "d,</w>", "d</w>", "da", "dar", "dark</w>", "dat", "de", "defin", "der", "e", "e,</w>", "e</w>", "e_", "en", "enc", "ent</w>", "er", "er,</w>", "er</w>", "es</w>", "et", "evalu", "ex", "execu", "f", "fa", "fact", "fe", "fee", "feel,</w>", "feel</w>", "fiel", "fin", "focus</w>", "for", "for,</w>", "for</w>", "fu", "g", "ge", "go", "goal", "gra", "graph</w>", "gre", "great,</w>", "great.</w>", "great</w>", "h", "happ", "happy.</w>", "has_", "has_intent</w>", "he", "heat</w>", "hello,</w>", "hello.</w>", "hello</w>", "help", "helpfu", "high", "high</w>", "humid", "i", "i,</w>", "i</w>", "id", "ig", "igh", "ight</w>", "il", "improv", "improves</w>", "in", "in</w>", "increase</w>", "inf", "infer", "inference</w>", "inferred</w>", "ing", "ing</w>", "int", "ion</w>", "is", "is,</w>", "is</w>", "is_a</w>", "ist", "it", "ity</w>", "ive</w>", "j", "k", "k</w>", "ke", "key</w>", "know", "know</w>", "knowledge</w>", "ks</w>", "l", "l,</w>", "l.</w>", "l</w>", "la", "le", "lear", "li", "likel", "lo", "m", "m</w>", "ma", "make,</w>", "make</w>", "mamma", "mammal,</w>", "mammal</w>", "mathema", "me", "meet", "meeting</w>", "memor", "memory</w>", "ment</w>", "mma", "mo", "mor", "most", "most,</w>", "most</w>", "n", "net", "ni", "no", "now", "now:</w>", "o", "o</w>", "od</w>", "on", "on</w>", "or", "or</w>", "organism", "organism,</w>", "organism</w>", "organiz", "organize</w>", "ou", "ov", "over", "overall</w>", "p", "pe", "peo", "people</w>", "ph", "photosynthes", "photosynthesis</w>", "plan", "plan</w>", "po", "pres", "pro", "probabil", "probability</w>", "process</w>", "q", "qu", "quickl", "quickly</w>", "r", "ra", "rain</w>", "rat", "rate", "re", "re</w>", "rec", "recent</w>", "red", "red</w>", "relevan", "relevant.</w>", "relevant</w>", "ren", "require", "requires</w>", "resour", "respon", "response</w>", "ret", "ri", "right</w>", "ro", "rob", "ry</w>", "s", "s:</w>", "s</w>", "se", "security</w>", "ser", "st", "str", "study</w>", "su", "subtasks</w>", "suggests</w>", "suppor", "support</w>", "sw", "t", "t,</w>", "t.</w>", "t</w>", "te", "technique</w>", "ter", "terms:</w>", "th", "th</w>", "than", "the", "the</w>", "then", "then</w>", "there", "there</w>", "this</w>", "ti", "tic", "tics</w>", "tion</w>", "tive</w>", "to", "today,</w>", "today.</w>", "today</w>", "tokens:</w>", "tomorrow", "tone</w>", "tw", "two", "two</w>", "u", "ud", "um", "un", "uni", "up", "upset</w>", "us", "user,</w>", "user</w>", "using</w>", "v", "ver</w>", "vers", "w", "was</w>", "water</w>", "wh", "what</w>", "with", "wr", "y", "y,</w>", "y.</w>", "y</w>", "you", "you</w>", "your</w>"]}